// model.h
#pragma once
#include <stdint.h>  // Usar esta línea en lugar de <cstdint>
#include <stdarg.h>
// Define los tamaños de entrada y salida según tu modelo
#define INPUT_SIZE 7    // 3 potenciómetros + R + G + B + W
#define OUTPUT_SIZE 10  // Número de clases (ej: 'Iron', etc.)
#ifndef MODEL_H
#define MODEL_H

#define MODEL_TFLITE_SIZE 3028
const unsigned char model_tflite[] = {0x1c, 0x00, 0x00, 0x00, 0x54, 0x46, 0x4c, 0x33, 0x14, 0x00, 0x20, 0x00, 0x1c, 0x00, 0x18, 0x00, 0x14, 0x00, 0x10, 0x00, 0x0c, 0x00, 0x00, 0x00, 0x08, 0x00, 0x04, 0x00, 0x14, 0x00, 0x00, 0x00, 0x1c, 0x00, 0x00, 0x00, 0x98, 0x00, 0x00, 0x00, 0xf0, 0x00, 0x00, 0x00, 0x20, 0x06, 0x00, 0x00, 0x30, 0x06, 0x00, 0x00, 0x70, 0x0b, 0x00, 0x00, 0x03, 0x00, 0x00, 0x00, 0x01, 0x00, 0x00, 0x00, 0x10, 0x00, 0x00, 0x00, 0x00, 0x00, 0x0a, 0x00, 0x10, 0x00, 0x0c, 0x00, 0x08, 0x00, 0x04, 0x00, 0x0a, 0x00, 0x00, 0x00, 0x0c, 0x00, 0x00, 0x00, 0x1c, 0x00, 0x00, 0x00, 0x3c, 0x00, 0x00, 0x00, 0x0f, 0x00, 0x00, 0x00, 0x73, 0x65, 0x72, 0x76, 0x69, 0x6e, 0x67, 0x5f, 0x64, 0x65, 0x66, 0x61, 0x75, 0x6c, 0x74, 0x00, 0x01, 0x00, 0x00, 0x00, 0x04, 0x00, 0x00, 0x00, 0x90, 0xff, 0xff, 0xff, 0x09, 0x00, 0x00, 0x00, 0x04, 0x00, 0x00, 0x00, 0x08, 0x00, 0x00, 0x00, 0x6f, 0x75, 0x74, 0x70, 0x75, 0x74, 0x5f, 0x30, 0x00, 0x00, 0x00, 0x00, 0x01, 0x00, 0x00, 0x00, 0x04, 0x00, 0x00, 0x00, 0xc6, 0xf9, 0xff, 0xff, 0x04, 0x00, 0x00, 0x00, 0x0f, 0x00, 0x00, 0x00, 0x6b, 0x65, 0x72, 0x61, 0x73, 0x5f, 0x74, 0x65, 0x6e, 0x73, 0x6f, 0x72, 0x5f, 0x31, 0x36, 0x00, 0x02, 0x00, 0x00, 0x00, 0x34, 0x00, 0x00, 0x00, 0x04, 0x00, 0x00, 0x00, 0xdc, 0xff, 0xff, 0xff, 0x0c, 0x00, 0x00, 0x00, 0x04, 0x00, 0x00, 0x00, 0x13, 0x00, 0x00, 0x00, 0x43, 0x4f, 0x4e, 0x56, 0x45, 0x52, 0x53, 0x49, 0x4f, 0x4e, 0x5f, 0x4d, 0x45, 0x54, 0x41, 0x44, 0x41, 0x54, 0x41, 0x00, 0x08, 0x00, 0x0c, 0x00, 0x08, 0x00, 0x04, 0x00, 0x08, 0x00, 0x00, 0x00, 0x0b, 0x00, 0x00, 0x00, 0x04, 0x00, 0x00, 0x00, 0x13, 0x00, 0x00, 0x00, 0x6d, 0x69, 0x6e, 0x5f, 0x72, 0x75, 0x6e, 0x74, 0x69, 0x6d, 0x65, 0x5f, 0x76, 0x65, 0x72, 0x73, 0x69, 0x6f, 0x6e, 0x00, 0x0d, 0x00, 0x00, 0x00, 0x2c, 0x05, 0x00, 0x00, 0x24, 0x05, 0x00, 0x00, 0xec, 0x04, 0x00, 0x00, 0x4c, 0x03, 0x00, 0x00, 0xfc, 0x01, 0x00, 0x00, 0xc4, 0x01, 0x00, 0x00, 0xb4, 0x00, 0x00, 0x00, 0xac, 0x00, 0x00, 0x00, 0xa4, 0x00, 0x00, 0x00, 0x9c, 0x00, 0x00, 0x00, 0x94, 0x00, 0x00, 0x00, 0x74, 0x00, 0x00, 0x00, 0x04, 0x00, 0x00, 0x00, 0x76, 0xfa, 0xff, 0xff, 0x04, 0x00, 0x00, 0x00, 0x60, 0x00, 0x00, 0x00, 0x10, 0x00, 0x00, 0x00, 0x00, 0x00, 0x00, 0x00, 0x08, 0x00, 0x0e, 0x00, 0x08, 0x00, 0x04, 0x00, 0x08, 0x00, 0x00, 0x00, 0x10, 0x00, 0x00, 0x00, 0x24, 0x00, 0x00, 0x00, 0x00, 0x00, 0x06, 0x00, 0x08, 0x00, 0x04, 0x00, 0x06, 0x00, 0x00, 0x00, 0x04, 0x00, 0x00, 0x00, 0x00, 0x00, 0x00, 0x00, 0x0c, 0x00, 0x18, 0x00, 0x14, 0x00, 0x10, 0x00, 0x0c, 0x00, 0x04, 0x00, 0x0c, 0x00, 0x00, 0x00, 0xbd, 0x0e, 0xb9, 0x5c, 0xc3, 0x01, 0x47, 0xc5, 0x02, 0x00, 0x00, 0x00, 0x02, 0x00, 0x00, 0x00, 0x04, 0x00, 0x00, 0x00, 0x06, 0x00, 0x00, 0x00, 0x32, 0x2e, 0x31, 0x38, 0x2e, 0x30, 0x00, 0x00, 0xe2, 0xfa, 0xff, 0xff, 0x04, 0x00, 0x00, 0x00, 0x10, 0x00, 0x00, 0x00, 0x31, 0x2e, 0x35, 0x2e, 0x30, 0x00, 0x00, 0x00, 0x00, 0x00, 0x00, 0x00, 0x00, 0x00, 0x00, 0x00, 0x70, 0xf6, 0xff, 0xff, 0x74, 0xf6, 0xff, 0xff, 0x78, 0xf6, 0xff, 0xff, 0x7c, 0xf6, 0xff, 0xff, 0x0e, 0xfb, 0xff, 0xff, 0x04, 0x00, 0x00, 0x00, 0x00, 0x01, 0x00, 0x00, 0x3d, 0x3c, 0xd1, 0xbe, 0x39, 0xbc, 0x12, 0xbf, 0xe6, 0x03, 0x48, 0x3f, 0x98, 0x1c, 0x90, 0xbf, 0xb9, 0x00, 0xc0, 0xbe, 0x10, 0x7e, 0x2e, 0x3f, 0xea, 0x06, 0x3b, 0x3f, 0xe9, 0xea, 0x40, 0xbe, 0x0c, 0x35, 0x52, 0x3f, 0x71, 0xbe, 0x03, 0x3e, 0x96, 0xf3, 0xaf, 0xbe, 0xdd, 0x9e, 0x24, 0xc0, 0x6a, 0xdc, 0x11, 0xbf, 0x0e, 0x50, 0xca, 0x3e, 0xfa, 0x3c, 0xcd, 0x3e, 0x84, 0x55, 0x13, 0x3e, 0x5b, 0xf7, 0x19, 0x3e, 0x90, 0x48, 0x54, 0x3e, 0x1c, 0xd2, 0xdd, 0xbe, 0x32, 0xb7, 0x17, 0x40, 0x71, 0xaf, 0x87, 0x3d, 0xd7, 0x5b, 0x90, 0x3e, 0x5c, 0x1e, 0xf2, 0x3e, 0xe6, 0xe2, 0xb9, 0x3e, 0x4f, 0xc8, 0xe2, 0x3f, 0x41, 0x28, 0xd9, 0x3e, 0xa9, 0x35, 0xe6, 0x3e, 0xf2, 0x74, 0x0c, 0x3f, 0x1f, 0x9a, 0x89, 0x3f, 0xeb, 0x82, 0xd3, 0x3d, 0xf4, 0xef, 0x2a, 0x3f, 0xcb, 0xf0, 0xd8, 0x3e, 0xd9, 0x23, 0xe3, 0x3e, 0x2e, 0x81, 0x89, 0xbe, 0xea, 0x5d, 0xf2, 0xbd, 0x3e, 0xdd, 0x7a, 0xbd, 0x89, 0x4a, 0x53, 0x3f, 0xd9, 0xa8, 0xd8, 0x3f, 0x91, 0xde, 0xca, 0x3f, 0x41, 0xd7, 0x74, 0xbf, 0x46, 0x7d, 0xbf, 0xbf, 0x83, 0x07, 0xf9, 0xbd, 0x0c, 0x02, 0xb1, 0x3d, 0x3d, 0xfb, 0x8d, 0x3f, 0x27, 0x0f, 0x5a, 0xbf, 0x25, 0x4f, 0x1d, 0xbf, 0x52, 0xe8, 0x87, 0xbf, 0x50, 0xdf, 0x88, 0xbe, 0xce, 0x76, 0x09, 0xbf, 0xac, 0x0c, 0x22, 0x3f, 0xf8, 0x01, 0x78, 0x3e, 0xbb, 0x63, 0x44, 0xbf, 0x91, 0x8f, 0x85, 0x3f, 0x48, 0x3f, 0x9e, 0x3f, 0xea, 0x69, 0xba, 0x3f, 0x9d, 0x38, 0xb3, 0xbe, 0xea, 0x13, 0x8e, 0xbf, 0x7d, 0x83, 0xba, 0xbe, 0xce, 0x09, 0xd1, 0x3c, 0xa9, 0x76, 0xc1, 0xbf, 0xf9, 0x7a, 0xe1, 0x3d, 0xb3, 0xe4, 0x6f, 0x3f, 0xac, 0x1a, 0xbe, 0xbe, 0xde, 0x4a, 0x12, 0x3f, 0x1a, 0xfc, 0xff, 0xff, 0x04, 0x00, 0x00, 0x00, 0x28, 0x00, 0x00, 0x00, 0x68, 0x82, 0x04, 0x3f, 0x06, 0x17, 0xd2, 0xbd, 0x71, 0x38, 0x5d, 0xbe, 0x40, 0x5a, 0xb7, 0x3f, 0x7a, 0xdc, 0x3a, 0xbf, 0xd6, 0x8b, 0xdd, 0xbe, 0xcf, 0x31, 0x9c, 0x3e, 0xbb, 0xaa, 0x69, 0xbe, 0x30, 0xba, 0x43, 0xbf, 0x3d, 0xee, 0x23, 0xbf, 0x4e, 0xfc, 0xff, 0xff, 0x04, 0x00, 0x00, 0x00, 0x40, 0x01, 0x00, 0x00, 0x79, 0x2d, 0x32, 0x3f, 0x42, 0xa8, 0x08, 0x3f, 0x4d, 0x14, 0xaf, 0xbf, 0x6e, 0x62, 0x1e, 0x3f, 0x7a, 0x8c, 0xbf, 0xbe, 0xe3, 0x7f, 0x5f, 0xbf, 0xc5, 0x77, 0xfd, 0x3d, 0x32, 0xab, 0x16, 0x3f, 0x78, 0x78, 0xfa, 0x3f, 0x3d, 0x7c, 0xce, 0x3f, 0x9f, 0x8b, 0xcd, 0xbf, 0x55, 0x3f, 0x06, 0xbf, 0x27, 0x65, 0xde, 0xbd, 0x60, 0x09, 0xe2, 0xbd, 0x7b, 0x0c, 0x25, 0xbe, 0x66, 0x6d, 0xc3, 0x3f, 0x84, 0x0e, 0xe9, 0x3f, 0x90, 0xcc, 0x7a, 0x3e, 0x50, 0x83, 0xd3, 0xbd, 0xdf, 0xe1, 0x5e, 0x3f, 0x49, 0x5b, 0xc4, 0x3f, 0xbd, 0x08, 0x7d, 0xbf, 0xad, 0xe8, 0xa1, 0x3f, 0x5e, 0x30, 0x69, 0x3f, 0x2b, 0x40, 0x5c, 0xbf, 0x95, 0xf9, 0x07, 0xbe, 0xc4, 0xb6, 0x98, 0x3f, 0xba, 0xf9, 0x3b, 0x3f, 0xa5, 0xe4, 0x99, 0xbe, 0xff, 0x8e, 0xed, 0xbe, 0x40, 0xee, 0x7f, 0xbe, 0x1b, 0xd3, 0xa5, 0xc0, 0xbc, 0xbe, 0x9f, 0x3f, 0x9b, 0x8f, 0xb1, 0x3d, 0x7f, 0x5c, 0x9e, 0x3f, 0xc0, 0xdc, 0xc9, 0x3e, 0x9a, 0x93, 0x85, 0x3f, 0xfc, 0x11, 0x6a, 0x3f, 0x71, 0xfc, 0xf9, 0x3e, 0xf7, 0xc9, 0xa9, 0x3f, 0xa1, 0x20, 0xd0, 0xbe, 0xf5, 0x4b, 0xfd, 0x3c, 0x11, 0x38, 0xcf, 0xbe, 0x91, 0xcf, 0x78, 0xbf, 0xbb, 0x15, 0x8b, 0xbf, 0x02, 0xec, 0x4e, 0x3f, 0x7c, 0x03, 0x74, 0xbe, 0x72, 0x48, 0x89, 0x3f, 0x63, 0x20, 0x2b, 0xbe, 0x2c, 0x78, 0x81, 0x3e, 0xf5, 0xd9, 0xd2, 0x3e, 0x0d, 0x8d, 0x8e, 0x3f, 0x70, 0x1a, 0x50, 0xbe, 0xda, 0x33, 0x71, 0xbd, 0x21, 0xf0, 0xbe, 0xbf, 0x62, 0x30, 0x8f, 0xbf, 0x16, 0x86, 0xf2, 0x3e, 0x66, 0x70, 0x6e, 0xbe, 0x4f, 0x61, 0xc7, 0xbd, 0x02, 0x47, 0x0f, 0xbf, 0xec, 0xb6, 0xbc, 0x3e, 0x3c, 0x67, 0x20, 0x3f, 0xdb, 0xb5, 0x94, 0xbf, 0x66, 0x28, 0x0f, 0xbf, 0x6f, 0x8c, 0x85, 0x3f, 0xf6, 0xee, 0x3e, 0xbf, 0xdb, 0x1f, 0x46, 0x3e, 0x55, 0x76, 0x05, 0x3f, 0x88, 0x61, 0x74, 0xbf, 0x42, 0x4a, 0x91, 0x3f, 0x61, 0xaf, 0x50, 0xbf, 0xb9, 0xe2, 0xcb, 0x3e, 0x9d, 0xc6, 0x33, 0x3e, 0xe3, 0xe3, 0xd1, 0xbf, 0x91, 0xe3, 0xdb, 0x3f, 0xe2, 0xa5, 0x33, 0x3e, 0x17, 0x6a, 0xb2, 0x3e, 0x57, 0x0a, 0xbd, 0x3f, 0x73, 0x3d, 0xd1, 0xbd, 0xed, 0x00, 0x24, 0xbe, 0x9a, 0xfd, 0xff, 0xff, 0x04, 0x00, 0x00, 0x00, 0x90, 0x01, 0x00, 0x00, 0x75, 0xb7, 0xec, 0xbf, 0xfe, 0x04, 0x88, 0xc0, 0xd8, 0x58, 0x24, 0xbf, 0x16, 0x1b, 0x1c, 0x3f, 0x9f, 0x8a, 0xb1, 0x3d, 0xab, 0xf4, 0x0b, 0xbf, 0x4c, 0x2b, 0x2e, 0x3f, 0xb9, 0x82, 0x74, 0x3f, 0xf4, 0xf4, 0x65, 0x3f, 0xf5, 0x0e, 0x59, 0x3e, 0xee, 0xbd, 0xeb, 0xbf, 0xce, 0x2f, 0x9a, 0xbf, 0x0a, 0x06, 0x59, 0xc0, 0x08, 0xd9, 0xa9, 0xbe, 0x1d, 0x13, 0xb6, 0x3e, 0x3b, 0x7a, 0x65, 0x3e, 0x46, 0x26, 0x8c, 0xbe, 0xd7, 0x71, 0x0a, 0xbf, 0xfb, 0x25, 0x70, 0x3f, 0x23, 0x87, 0x1a, 0x3f, 0xe5, 0x9a, 0x20, 0x3f, 0x77, 0x80, 0x34, 0x3f, 0x1b, 0x00, 0x6f, 0xbe, 0x0c, 0xeb, 0x25, 0xc0, 0x24, 0x3c, 0xac, 0xbf, 0x19, 0x2e, 0x8b, 0xbf, 0x6b, 0x19, 0xa2, 0xbf, 0x45, 0xf8, 0x39, 0x3e, 0x92, 0x40, 0x27, 0xbd, 0x4c, 0x11, 0x22, 0xc0, 0x32, 0x32, 0x85, 0xbe, 0x9b, 0x6b, 0xf5, 0xbe, 0x08, 0xae, 0x74, 0x3f, 0xb2, 0xf8, 0xde, 0xbf, 0x6a, 0x40, 0xb8, 0x3e, 0x0b, 0x81, 0x5f, 0xbf, 0x58, 0x44, 0x47, 0xbe, 0x2a, 0xfa, 0x2b, 0x3f, 0xf7, 0x01, 0x8e, 0x3f, 0x3f, 0xb8, 0x2d, 0xc0, 0x25, 0xcf, 0xfa, 0x3e, 0x14, 0xba, 0x64, 0x3d, 0x07, 0xd2, 0xa8, 0x3f, 0xf8, 0x93, 0x2e, 0x3f, 0xb8, 0x70, 0xb8, 0xbd, 0x65, 0x3d, 0xb1, 0xbe, 0x04, 0x70, 0x05, 0xc0, 0x88, 0xd4, 0x4f, 0xbe, 0xd8, 0x44, 0x2f, 0xbd, 0x46, 0xb0, 0x23, 0xbf, 0x58, 0x39, 0x19, 0x3f, 0xaa, 0xe8, 0x0c, 0xbc, 0x61, 0x8b, 0x7d, 0xc0, 0x22, 0x94, 0xe2, 0xbe, 0x4f, 0x0f, 0x52, 0xbf, 0x4d, 0x3a, 0x16, 0xc0, 0xe8, 0x51, 0xf4, 0x3e, 0x00, 0xa3, 0x53, 0xc0, 0x86, 0xbb, 0xa7, 0xbf, 0xa0, 0x80, 0x46, 0xbe, 0xed, 0x7a, 0x95, 0x3e, 0xbe, 0xcc, 0x6e, 0xbd, 0xee, 0x4f, 0x87, 0xbe, 0xe1, 0xc1, 0x19, 0x3f, 0x88, 0x84, 0xf5, 0x3e, 0x8e, 0x8d, 0x83, 0xc0, 0x10, 0xf4, 0x0d, 0x3f, 0x15, 0x0b, 0x28, 0xc0, 0x4d, 0x7d, 0xdc, 0xbf, 0xf4, 0x7b, 0x3a, 0x3f, 0xf1, 0xb2, 0xfa, 0xbe, 0x75, 0x20, 0x9a, 0xbd, 0x60, 0xa4, 0x4a, 0x3f, 0x3e, 0x45, 0x50, 0x3f, 0xbe, 0xa8, 0xbb, 0xc0, 0xc0, 0x29, 0x4d, 0x3f, 0x0e, 0x76, 0x20, 0xbe, 0xe8, 0x13, 0x08, 0x3f, 0x66, 0xe5, 0xb7, 0x3d, 0x10, 0x91, 0x9c, 0xbf, 0x3c, 0xf0, 0xf5, 0xbe, 0xb8, 0x1f, 0x78, 0x3e, 0xf4, 0xc7, 0x6e, 0x3f, 0xc0, 0x7e, 0xa5, 0xc0, 0xd7, 0xb5, 0x8b, 0x3e, 0xdf, 0x7b, 0x3b, 0x3f, 0x5a, 0xda, 0xcf, 0x3d, 0x93, 0xcb, 0x49, 0xbf, 0x1c, 0x54, 0xf7, 0xbe, 0xd2, 0x1e, 0xa1, 0xbf, 0x14, 0x0c, 0x98, 0xbb, 0x68, 0x00, 0x99, 0xbf, 0xc5, 0x5c, 0x89, 0xbf, 0xb3, 0xc9, 0x73, 0x3f, 0x22, 0xf9, 0x9a, 0x3e, 0xc8, 0x5d, 0x83, 0xbf, 0x38, 0x23, 0x52, 0xbf, 0xb2, 0x3c, 0x5b, 0xbf, 0x47, 0x53, 0x73, 0xbf, 0xe2, 0x00, 0x88, 0x3f, 0x36, 0xff, 0xff, 0xff, 0x04, 0x00, 0x00, 0x00, 0x28, 0x00, 0x00, 0x00, 0x32, 0x11, 0xc6, 0x3e, 0x28, 0xff, 0x4d, 0x40, 0xab, 0x99, 0xc6, 0x40, 0x60, 0x1a, 0x9a, 0xc0, 0x0e, 0x99, 0xee, 0x40, 0x14, 0x8a, 0x9c, 0xbf, 0xda, 0xad, 0xe4, 0x3f, 0x60, 0xcd, 0x0a, 0x40, 0xe8, 0x11, 0x99, 0x40, 0x5c, 0x89, 0x97, 0x40, 0xdc, 0xfa, 0xff, 0xff, 0xe0, 0xfa, 0xff, 0xff, 0x0f, 0x00, 0x00, 0x00, 0x4d, 0x4c, 0x49, 0x52, 0x20, 0x43, 0x6f, 0x6e, 0x76, 0x65, 0x72, 0x74, 0x65, 0x64, 0x2e, 0x00, 0x01, 0x00, 0x00, 0x00, 0x14, 0x00, 0x00, 0x00, 0x00, 0x00, 0x0e, 0x00, 0x18, 0x00, 0x14, 0x00, 0x10, 0x00, 0x0c, 0x00, 0x08, 0x00, 0x04, 0x00, 0x0e, 0x00, 0x00, 0x00, 0x14, 0x00, 0x00, 0x00, 0x1c, 0x00, 0x00, 0x00, 0x20, 0x01, 0x00, 0x00, 0x24, 0x01, 0x00, 0x00, 0x28, 0x01, 0x00, 0x00, 0x04, 0x00, 0x00, 0x00, 0x6d, 0x61, 0x69, 0x6e, 0x00, 0x00, 0x00, 0x00, 0x04, 0x00, 0x00, 0x00, 0xd4, 0x00, 0x00, 0x00, 0x84, 0x00, 0x00, 0x00, 0x50, 0x00, 0x00, 0x00, 0x14, 0x00, 0x00, 0x00, 0x00, 0x00, 0x0e, 0x00, 0x1a, 0x00, 0x14, 0x00, 0x10, 0x00, 0x0c, 0x00, 0x0b, 0x00, 0x04, 0x00, 0x0e, 0x00, 0x00, 0x00, 0x1c, 0x00, 0x00, 0x00, 0x00, 0x00, 0x00, 0x09, 0x1c, 0x00, 0x00, 0x00, 0x20, 0x00, 0x00, 0x00, 0x01, 0x00, 0x00, 0x00, 0x00, 0x00, 0x06, 0x00, 0x08, 0x00, 0x04, 0x00, 0x06, 0x00, 0x00, 0x00, 0x00, 0x00, 0x80, 0x3f, 0x01, 0x00, 0x00, 0x00, 0x09, 0x00, 0x00, 0x00, 0x01, 0x00, 0x00, 0x00, 0x08, 0x00, 0x00, 0x00, 0x92, 0xff, 0xff, 0xff, 0x10, 0x00, 0x00, 0x00, 0x00, 0x00, 0x00, 0x08, 0x0c, 0x00, 0x00, 0x00, 0x10, 0x00, 0x00, 0x00, 0xa4, 0xfb, 0xff, 0xff, 0x01, 0x00, 0x00, 0x00, 0x08, 0x00, 0x00, 0x00, 0x03, 0x00, 0x00, 0x00, 0x07, 0x00, 0x00, 0x00, 0x02, 0x00, 0x00, 0x00, 0x04, 0x00, 0x00, 0x00, 0xc2, 0xff, 0xff, 0xff, 0x18, 0x00, 0x00, 0x00, 0x00, 0x00, 0x00, 0x08, 0x18, 0x00, 0x00, 0x00, 0x1c, 0x00, 0x00, 0x00, 0x00, 0x00, 0x06, 0x00, 0x08, 0x00, 0x07, 0x00, 0x06, 0x00, 0x00, 0x00, 0x00, 0x00, 0x00, 0x01, 0x01, 0x00, 0x00, 0x00, 0x07, 0x00, 0x00, 0x00, 0x03, 0x00, 0x00, 0x00, 0x06, 0x00, 0x00, 0x00, 0x03, 0x00, 0x00, 0x00, 0x01, 0x00, 0x00, 0x00, 0x00, 0x00, 0x0e, 0x00, 0x14, 0x00, 0x00, 0x00, 0x10, 0x00, 0x0c, 0x00, 0x0b, 0x00, 0x04, 0x00, 0x0e, 0x00, 0x00, 0x00, 0x10, 0x00, 0x00, 0x00, 0x00, 0x00, 0x00, 0x08, 0x0c, 0x00, 0x00, 0x00, 0x10, 0x00, 0x00, 0x00, 0x20, 0xfc, 0xff, 0xff, 0x01, 0x00, 0x00, 0x00, 0x06, 0x00, 0x00, 0x00, 0x03, 0x00, 0x00, 0x00, 0x00, 0x00, 0x00, 0x00, 0x05, 0x00, 0x00, 0x00, 0xff, 0xff, 0xff, 0xff, 0x01, 0x00, 0x00, 0x00, 0x09, 0x00, 0x00, 0x00, 0x01, 0x00, 0x00, 0x00, 0x00, 0x00, 0x00, 0x00, 0x0a, 0x00, 0x00, 0x00, 0x88, 0x03, 0x00, 0x00, 0x34, 0x03, 0x00, 0x00, 0xdc, 0x02, 0x00, 0x00, 0x9c, 0x02, 0x00, 0x00, 0x60, 0x02, 0x00, 0x00, 0x0c, 0x02, 0x00, 0x00, 0xa8, 0x01, 0x00, 0x00, 0xe4, 0x00, 0x00, 0x00, 0x60, 0x00, 0x00, 0x00, 0x04, 0x00, 0x00, 0x00, 0xb6, 0xfc, 0xff, 0xff, 0x00, 0x00, 0x00, 0x01, 0x14, 0x00, 0x00, 0x00, 0x1c, 0x00, 0x00, 0x00, 0x1c, 0x00, 0x00, 0x00, 0x0a, 0x00, 0x00, 0x00, 0x34, 0x00, 0x00, 0x00, 0x02, 0x00, 0x00, 0x00, 0xff, 0xff, 0xff, 0xff, 0x0a, 0x00, 0x00, 0x00, 0xa0, 0xfc, 0xff, 0xff, 0x1b, 0x00, 0x00, 0x00, 0x53, 0x74, 0x61, 0x74, 0x65, 0x66, 0x75, 0x6c, 0x50, 0x61, 0x72, 0x74, 0x69, 0x74, 0x69, 0x6f, 0x6e, 0x65, 0x64, 0x43, 0x61, 0x6c, 0x6c, 0x5f, 0x31, 0x3a, 0x30, 0x00, 0x02, 0x00, 0x00, 0x00, 0x01, 0x00, 0x00, 0x00, 0x0a, 0x00, 0x00, 0x00, 0x0e, 0xfd, 0xff, 0xff, 0x00, 0x00, 0x00, 0x01, 0x14, 0x00, 0x00, 0x00, 0x1c, 0x00, 0x00, 0x00, 0x1c, 0x00, 0x00, 0x00, 0x09, 0x00, 0x00, 0x00, 0x5c, 0x00, 0x00, 0x00, 0x02, 0x00, 0x00, 0x00, 0xff, 0xff, 0xff, 0xff, 0x0a, 0x00, 0x00, 0x00, 0xf8, 0xfc, 0xff, 0xff, 0x42, 0x00, 0x00, 0x00, 0x73, 0x65, 0x71, 0x75, 0x65, 0x6e, 0x74, 0x69, 0x61, 0x6c, 0x5f, 0x34, 0x5f, 0x31, 0x2f, 0x64, 0x65, 0x6e, 0x73, 0x65, 0x5f, 0x31, 0x34, 0x5f, 0x31, 0x2f, 0x4d, 0x61, 0x74, 0x4d, 0x75, 0x6c, 0x3b, 0x73, 0x65, 0x71, 0x75, 0x65, 0x6e, 0x74, 0x69, 0x61, 0x6c, 0x5f, 0x34, 0x5f, 0x31, 0x2f, 0x64, 0x65, 0x6e, 0x73, 0x65, 0x5f, 0x31, 0x34, 0x5f, 0x31, 0x2f, 0x42, 0x69, 0x61, 0x73, 0x41, 0x64, 0x64, 0x00, 0x00, 0x02, 0x00, 0x00, 0x00, 0x01, 0x00, 0x00, 0x00, 0x0a, 0x00, 0x00, 0x00, 0x8e, 0xfd, 0xff, 0xff, 0x00, 0x00, 0x00, 0x01, 0x14, 0x00, 0x00, 0x00, 0x1c, 0x00, 0x00, 0x00, 0x1c, 0x00, 0x00, 0x00, 0x08, 0x00, 0x00, 0x00, 0x9c, 0x00, 0x00, 0x00, 0x02, 0x00, 0x00, 0x00, 0xff, 0xff, 0xff, 0xff, 0x0a, 0x00, 0x00, 0x00, 0x78, 0xfd, 0xff, 0xff, 0x83, 0x00, 0x00, 0x00, 0x73, 0x65, 0x71, 0x75, 0x65, 0x6e, 0x74, 0x69, 0x61, 0x6c, 0x5f, 0x34, 0x5f, 0x31, 0x2f, 0x64, 0x65, 0x6e, 0x73, 0x65, 0x5f, 0x31, 0x32, 0x5f, 0x31, 0x2f, 0x42, 0x69, 0x61, 0x73, 0x41, 0x64, 0x64, 0x3b, 0x73, 0x65, 0x71, 0x75, 0x65, 0x6e, 0x74, 0x69, 0x61, 0x6c, 0x5f, 0x34, 0x5f, 0x31, 0x2f, 0x64, 0x65, 0x6e, 0x73, 0x65, 0x5f, 0x31, 0x33, 0x5f, 0x31, 0x2f, 0x4d, 0x61, 0x74, 0x4d, 0x75, 0x6c, 0x3b, 0x73, 0x65, 0x71, 0x75, 0x65, 0x6e, 0x74, 0x69, 0x61, 0x6c, 0x5f, 0x34, 0x5f, 0x31, 0x2f, 0x64, 0x65, 0x6e, 0x73, 0x65, 0x5f, 0x31, 0x33, 0x5f, 0x31, 0x2f, 0x52, 0x65, 0x6c, 0x75, 0x3b, 0x73, 0x65, 0x71, 0x75, 0x65, 0x6e, 0x74, 0x69, 0x61, 0x6c, 0x5f, 0x34, 0x5f, 0x31, 0x2f, 0x64, 0x65, 0x6e, 0x73, 0x65, 0x5f, 0x31, 0x33, 0x5f, 0x31, 0x2f, 0x42, 0x69, 0x61, 0x73, 0x41, 0x64, 0x64, 0x00, 0x02, 0x00, 0x00, 0x00, 0x01, 0x00, 0x00, 0x00, 0x0a, 0x00, 0x00, 0x00, 0x4e, 0xfe, 0xff, 0xff, 0x00, 0x00, 0x00, 0x01, 0x14, 0x00, 0x00, 0x00, 0x1c, 0x00, 0x00, 0x00, 0x1c, 0x00, 0x00, 0x00, 0x07, 0x00, 0x00, 0x00, 0x3c, 0x00, 0x00, 0x00, 0x02, 0x00, 0x00, 0x00, 0xff, 0xff, 0xff, 0xff, 0x08, 0x00, 0x00, 0x00, 0x38, 0xfe, 0xff, 0xff, 0x21, 0x00, 0x00, 0x00, 0x73, 0x65, 0x71, 0x75, 0x65, 0x6e, 0x74, 0x69, 0x61, 0x6c, 0x5f, 0x34, 0x5f, 0x31, 0x2f, 0x64, 0x65, 0x6e, 0x73, 0x65, 0x5f, 0x31, 0x32, 0x5f, 0x31, 0x2f, 0x4d, 0x61, 0x74, 0x4d, 0x75, 0x6c, 0x31, 0x00, 0x00, 0x00, 0x02, 0x00, 0x00, 0x00, 0x01, 0x00, 0x00, 0x00, 0x08, 0x00, 0x00, 0x00, 0xfe, 0xfe, 0xff, 0xff, 0x00, 0x00, 0x00, 0x01, 0x10, 0x00, 0x00, 0x00, 0x10, 0x00, 0x00, 0x00, 0x06, 0x00, 0x00, 0x00, 0x30, 0x00, 0x00, 0x00, 0x88, 0xfe, 0xff, 0xff, 0x20, 0x00, 0x00, 0x00, 0x73, 0x65, 0x71, 0x75, 0x65, 0x6e, 0x74, 0x69, 0x61, 0x6c, 0x5f, 0x34, 0x5f, 0x31, 0x2f, 0x64, 0x65, 0x6e, 0x73, 0x65, 0x5f, 0x31, 0x32, 0x5f, 0x31, 0x2f, 0x4d, 0x61, 0x74, 0x4d, 0x75, 0x6c, 0x00, 0x00, 0x00, 0x00, 0x02, 0x00, 0x00, 0x00, 0x08, 0x00, 0x00, 0x00, 0x08, 0x00, 0x00, 0x00, 0x4e, 0xff, 0xff, 0xff, 0x00, 0x00, 0x00, 0x01, 0x10, 0x00, 0x00, 0x00, 0x10, 0x00, 0x00, 0x00, 0x05, 0x00, 0x00, 0x00, 0x1c, 0x00, 0x00, 0x00, 0xd8, 0xfe, 0xff, 0xff, 0x0f, 0x00, 0x00, 0x00, 0x61, 0x72, 0x69, 0x74, 0x68, 0x2e, 0x63, 0x6f, 0x6e, 0x73, 0x74, 0x61, 0x6e, 0x74, 0x33, 0x00, 0x01, 0x00, 0x00, 0x00, 0x0a, 0x00, 0x00, 0x00, 0x86, 0xff, 0xff, 0xff, 0x00, 0x00, 0x00, 0x01, 0x10, 0x00, 0x00, 0x00, 0x10, 0x00, 0x00, 0x00, 0x04, 0x00, 0x00, 0x00, 0x1c, 0x00, 0x00, 0x00, 0x10, 0xff, 0xff, 0xff, 0x0f, 0x00, 0x00, 0x00, 0x61, 0x72, 0x69, 0x74, 0x68, 0x2e, 0x63, 0x6f, 0x6e, 0x73, 0x74, 0x61, 0x6e, 0x74, 0x32, 0x00, 0x02, 0x00, 0x00, 0x00, 0x0a, 0x00, 0x00, 0x00, 0x08, 0x00, 0x00, 0x00, 0xc2, 0xff, 0xff, 0xff, 0x00, 0x00, 0x00, 0x01, 0x10, 0x00, 0x00, 0x00, 0x10, 0x00, 0x00, 0x00, 0x03, 0x00, 0x00, 0x00, 0x1c, 0x00, 0x00, 0x00, 0x4c, 0xff, 0xff, 0xff, 0x0f, 0x00, 0x00, 0x00, 0x61, 0x72, 0x69, 0x74, 0x68, 0x2e, 0x63, 0x6f, 0x6e, 0x73, 0x74, 0x61, 0x6e, 0x74, 0x31, 0x00, 0x02, 0x00, 0x00, 0x00, 0x0a, 0x00, 0x00, 0x00, 0x0a, 0x00, 0x00, 0x00, 0x00, 0x00, 0x16, 0x00, 0x18, 0x00, 0x14, 0x00, 0x00, 0x00, 0x10, 0x00, 0x0c, 0x00, 0x08, 0x00, 0x00, 0x00, 0x00, 0x00, 0x00, 0x00, 0x07, 0x00, 0x16, 0x00, 0x00, 0x00, 0x00, 0x00, 0x00, 0x01, 0x10, 0x00, 0x00, 0x00, 0x10, 0x00, 0x00, 0x00, 0x02, 0x00, 0x00, 0x00, 0x1c, 0x00, 0x00, 0x00, 0xa0, 0xff, 0xff, 0xff, 0x0e, 0x00, 0x00, 0x00, 0x61, 0x72, 0x69, 0x74, 0x68, 0x2e, 0x63, 0x6f, 0x6e, 0x73, 0x74, 0x61, 0x6e, 0x74, 0x00, 0x00, 0x01, 0x00, 0x00, 0x00, 0x0a, 0x00, 0x00, 0x00, 0x00, 0x00, 0x16, 0x00, 0x1c, 0x00, 0x18, 0x00, 0x00, 0x00, 0x14, 0x00, 0x10, 0x00, 0x0c, 0x00, 0x00, 0x00, 0x00, 0x00, 0x08, 0x00, 0x07, 0x00, 0x16, 0x00, 0x00, 0x00, 0x00, 0x00, 0x00, 0x01, 0x14, 0x00, 0x00, 0x00, 0x20, 0x00, 0x00, 0x00, 0x20, 0x00, 0x00, 0x00, 0x01, 0x00, 0x00, 0x00, 0x40, 0x00, 0x00, 0x00, 0x02, 0x00, 0x00, 0x00, 0xff, 0xff, 0xff, 0xff, 0x08, 0x00, 0x00, 0x00, 0x04, 0x00, 0x04, 0x00, 0x04, 0x00, 0x00, 0x00, 0x21, 0x00, 0x00, 0x00, 0x73, 0x65, 0x72, 0x76, 0x69, 0x6e, 0x67, 0x5f, 0x64, 0x65, 0x66, 0x61, 0x75, 0x6c, 0x74, 0x5f, 0x6b, 0x65, 0x72, 0x61, 0x73, 0x5f, 0x74, 0x65, 0x6e, 0x73, 0x6f, 0x72, 0x5f, 0x31, 0x36, 0x3a, 0x30, 0x00, 0x00, 0x00, 0x02, 0x00, 0x00, 0x00, 0x01, 0x00, 0x00, 0x00, 0x08, 0x00, 0x00, 0x00, 0x02, 0x00, 0x00, 0x00, 0x20, 0x00, 0x00, 0x00, 0x04, 0x00, 0x00, 0x00, 0xf4, 0xff, 0xff, 0xff, 0x19, 0x00, 0x00, 0x00, 0x00, 0x00, 0x00, 0x19, 0x0c, 0x00, 0x0c, 0x00, 0x0b, 0x00, 0x00, 0x00, 0x00, 0x00, 0x04, 0x00, 0x0c, 0x00, 0x00, 0x00, 0x09, 0x00, 0x00, 0x00, 0x00, 0x00, 0x00, 0x09};

#endif // MODEL_H