#define MODEL_TFLITE_SIZE 3036
const unsigned char model_tflite[] = [28, 0, 0, 0, 84, 70, 76, 51, 20, 0, 32, 0, 28, 0, 24, 0, 20, 0, 16, 0, 12, 0, 0, 0, 8, 0, 4, 0, 20, 0, 0, 0, 28, 0, 0, 0, 152, 0, 0, 0, 240, 0, 0, 0, 32, 6, 0, 0, 48, 6, 0, 0, 120, 11, 0, 0, 3, 0, 0, 0, 1, 0, 0, 0, 16, 0, 0, 0, 0, 0, 10, 0, 16, 0, 12, 0, 8, 0, 4, 0, 10, 0, 0, 0, 12, 0, 0, 0, 28, 0, 0, 0, 60, 0, 0, 0, 15, 0, 0, 0, 115, 101, 114, 118, 105, 110, 103, 95, 100, 101, 102, 97, 117, 108, 116, 0, 1, 0, 0, 0, 4, 0, 0, 0, 144, 255, 255, 255, 9, 0, 0, 0, 4, 0, 0, 0, 8, 0, 0, 0, 111, 117, 116, 112, 117, 116, 95, 48, 0, 0, 0, 0, 1, 0, 0, 0, 4, 0, 0, 0, 198, 249, 255, 255, 4, 0, 0, 0, 15, 0, 0, 0, 107, 101, 114, 97, 115, 95, 116, 101, 110, 115, 111, 114, 95, 51, 50, 0, 2, 0, 0, 0, 52, 0, 0, 0, 4, 0, 0, 0, 220, 255, 255, 255, 12, 0, 0, 0, 4, 0, 0, 0, 19, 0, 0, 0, 67, 79, 78, 86, 69, 82, 83, 73, 79, 78, 95, 77, 69, 84, 65, 68, 65, 84, 65, 0, 8, 0, 12, 0, 8, 0, 4, 0, 8, 0, 0, 0, 11, 0, 0, 0, 4, 0, 0, 0, 19, 0, 0, 0, 109, 105, 110, 95, 114, 117, 110, 116, 105, 109, 101, 95, 118, 101, 114, 115, 105, 111, 110, 0, 13, 0, 0, 0, 44, 5, 0, 0, 36, 5, 0, 0, 236, 4, 0, 0, 76, 3, 0, 0, 252, 1, 0, 0, 196, 1, 0, 0, 180, 0, 0, 0, 172, 0, 0, 0, 164, 0, 0, 0, 156, 0, 0, 0, 148, 0, 0, 0, 116, 0, 0, 0, 4, 0, 0, 0, 118, 250, 255, 255, 4, 0, 0, 0, 96, 0, 0, 0, 16, 0, 0, 0, 0, 0, 0, 0, 8, 0, 14, 0, 8, 0, 4, 0, 8, 0, 0, 0, 16, 0, 0, 0, 36, 0, 0, 0, 0, 0, 6, 0, 8, 0, 4, 0, 6, 0, 0, 0, 4, 0, 0, 0, 0, 0, 0, 0, 12, 0, 24, 0, 20, 0, 16, 0, 12, 0, 4, 0, 12, 0, 0, 0, 189, 14, 185, 92, 195, 1, 71, 197, 2, 0, 0, 0, 2, 0, 0, 0, 4, 0, 0, 0, 6, 0, 0, 0, 50, 46, 49, 56, 46, 48, 0, 0, 226, 250, 255, 255, 4, 0, 0, 0, 16, 0, 0, 0, 49, 46, 53, 46, 48, 0, 0, 0, 0, 0, 0, 0, 0, 0, 0, 0, 104, 246, 255, 255, 108, 246, 255, 255, 112, 246, 255, 255, 116, 246, 255, 255, 14, 251, 255, 255, 4, 0, 0, 0, 0, 1, 0, 0, 149, 117, 34, 191, 76, 192, 156, 190, 154, 214, 72, 62, 223, 13, 240, 63, 73, 234, 67, 62, 28, 222, 52, 191, 166, 81, 39, 191, 247, 70, 239, 61, 156, 170, 121, 63, 194, 88, 4, 62, 31, 130, 150, 190, 108, 120, 163, 191, 184, 221, 147, 191, 203, 60, 249, 190, 129, 111, 80, 191, 3, 221, 59, 62, 3, 130, 202, 190, 176, 144, 94, 62, 81, 139, 69, 63, 63, 169, 25, 192, 177, 34, 202, 189, 197, 85, 101, 191, 108, 184, 88, 189, 192, 200, 7, 61, 247, 124, 211, 62, 52, 237, 83, 63, 166, 192, 73, 62, 72, 156, 183, 63, 120, 31, 144, 191, 104, 51, 83, 191, 61, 66, 188, 191, 189, 182, 252, 62, 194, 152, 106, 191, 93, 154, 139, 62, 139, 94, 154, 63, 84, 255, 210, 190, 231, 118, 110, 63, 102, 19, 235, 63, 178, 133, 225, 63, 86, 216, 164, 62, 12, 231, 195, 191, 136, 74, 43, 191, 152, 206, 24, 190, 47, 154, 65, 191, 12, 131, 203, 191, 250, 138, 181, 191, 203, 81, 8, 62, 53, 204, 219, 190, 49, 232, 111, 63, 208, 181, 77, 63, 238, 207, 52, 63, 100, 89, 200, 63, 132, 86, 189, 189, 82, 147, 69, 191, 74, 217, 30, 63, 207, 87, 243, 62, 142, 18, 182, 191, 116, 40, 246, 62, 226, 44, 62, 190, 73, 109, 29, 63, 235, 31, 178, 63, 145, 17, 123, 191, 80, 112, 48, 191, 226, 19, 218, 62, 26, 252, 255, 255, 4, 0, 0, 0, 40, 0, 0, 0, 222, 142, 178, 62, 120, 62, 177, 190, 204, 112, 165, 61, 71, 241, 6, 64, 227, 142, 195, 63, 44, 77, 152, 191, 97, 95, 173, 191, 33, 255, 216, 191, 91, 10, 74, 62, 169, 46, 152, 191, 78, 252, 255, 255, 4, 0, 0, 0, 64, 1, 0, 0, 71, 164, 166, 63, 19, 95, 28, 63, 105, 2, 103, 190, 91, 246, 21, 63, 219, 207, 150, 191, 68, 156, 109, 191, 31, 2, 138, 62, 103, 208, 189, 190, 161, 237, 110, 63, 4, 114, 245, 190, 76, 201, 152, 191, 2, 78, 21, 63, 85, 174, 232, 62, 175, 127, 81, 191, 15, 9, 162, 63, 18, 247, 228, 190, 164, 82, 46, 62, 31, 4, 153, 63, 14, 137, 150, 63, 236, 219, 83, 63, 82, 250, 135, 191, 80, 5, 175, 63, 52, 8, 92, 191, 237, 193, 172, 191, 125, 128, 224, 190, 57, 176, 171, 61, 129, 51, 160, 63, 123, 84, 131, 190, 211, 36, 195, 63, 71, 54, 54, 62, 87, 78, 122, 188, 63, 13, 165, 62, 53, 224, 144, 191, 143, 95, 235, 62, 57, 174, 175, 61, 214, 156, 24, 191, 194, 175, 207, 62, 57, 60, 168, 191, 200, 245, 14, 63, 141, 228, 5, 191, 254, 174, 26, 192, 15, 247, 163, 62, 157, 13, 12, 63, 58, 184, 192, 62, 221, 40, 3, 191, 250, 158, 113, 191, 44, 68, 136, 63, 122, 235, 144, 63, 217, 125, 25, 63, 236, 191, 61, 191, 254, 201, 69, 191, 93, 134, 129, 191, 229, 170, 255, 63, 158, 185, 142, 191, 87, 181, 147, 191, 123, 247, 166, 60, 37, 255, 44, 191, 36, 210, 80, 60, 54, 104, 68, 191, 112, 167, 176, 62, 117, 153, 240, 189, 9, 45, 206, 191, 38, 228, 11, 63, 77, 148, 233, 190, 237, 49, 45, 64, 217, 187, 76, 191, 3, 24, 159, 191, 176, 33, 156, 63, 166, 129, 176, 190, 43, 246, 248, 190, 52, 30, 133, 191, 168, 164, 197, 63, 203, 87, 7, 192, 244, 100, 57, 62, 14, 48, 15, 63, 188, 35, 51, 190, 217, 121, 220, 62, 151, 177, 137, 191, 198, 207, 82, 191, 237, 3, 175, 191, 154, 253, 255, 255, 4, 0, 0, 0, 144, 1, 0, 0, 91, 253, 122, 63, 160, 242, 166, 190, 211, 58, 116, 192, 191, 157, 31, 192, 81, 220, 171, 189, 62, 53, 53, 61, 62, 146, 235, 190, 19, 146, 40, 62, 86, 29, 136, 63, 88, 243, 36, 192, 145, 20, 0, 63, 226, 184, 53, 192, 218, 211, 132, 191, 135, 229, 6, 192, 149, 133, 235, 190, 56, 185, 160, 190, 58, 173, 98, 192, 32, 172, 176, 191, 130, 5, 2, 64, 202, 235, 13, 192, 118, 228, 111, 191, 236, 16, 14, 191, 174, 243, 123, 63, 107, 113, 254, 63, 9, 253, 46, 63, 211, 137, 12, 190, 227, 181, 170, 190, 53, 138, 191, 191, 199, 206, 220, 191, 93, 216, 99, 62, 92, 110, 176, 62, 62, 177, 94, 62, 205, 195, 132, 61, 207, 202, 53, 63, 87, 127, 38, 191, 34, 252, 166, 190, 167, 159, 65, 191, 73, 54, 27, 191, 134, 108, 248, 62, 129, 122, 192, 62, 119, 37, 136, 191, 0, 179, 104, 191, 14, 122, 0, 63, 58, 38, 123, 63, 221, 31, 212, 63, 192, 131, 168, 191, 216, 23, 144, 63, 52, 38, 33, 62, 99, 117, 208, 190, 184, 146, 204, 59, 54, 129, 154, 62, 201, 61, 95, 192, 221, 2, 233, 190, 101, 208, 128, 192, 4, 28, 8, 63, 109, 203, 156, 63, 131, 155, 243, 190, 167, 208, 2, 61, 165, 191, 250, 191, 23, 7, 102, 190, 165, 149, 171, 189, 246, 95, 249, 62, 52, 240, 150, 187, 22, 162, 249, 191, 245, 0, 62, 191, 204, 159, 249, 62, 54, 192, 21, 63, 79, 226, 31, 63, 174, 60, 168, 187, 234, 75, 6, 61, 8, 13, 126, 63, 240, 220, 214, 63, 41, 118, 17, 63, 197, 145, 129, 62, 238, 248, 133, 191, 22, 55, 189, 191, 142, 82, 142, 192, 148, 87, 132, 63, 124, 212, 221, 191, 114, 13, 10, 192, 198, 176, 192, 191, 175, 8, 46, 192, 92, 176, 42, 63, 91, 143, 196, 63, 160, 192, 96, 189, 246, 167, 55, 63, 38, 126, 184, 59, 157, 101, 109, 192, 55, 97, 250, 188, 66, 112, 179, 63, 79, 165, 222, 190, 47, 208, 178, 63, 35, 124, 14, 192, 165, 69, 47, 192, 211, 55, 200, 191, 212, 95, 177, 190, 198, 166, 25, 190, 154, 97, 136, 191, 211, 55, 237, 62, 176, 112, 135, 191, 54, 255, 255, 255, 4, 0, 0, 0, 40, 0, 0, 0, 64, 243, 85, 64, 191, 172, 70, 63, 4, 92, 204, 63, 244, 206, 225, 190, 225, 206, 50, 192, 192, 227, 211, 192, 91, 212, 146, 64, 120, 238, 247, 190, 148, 68, 33, 65, 172, 204, 73, 191, 212, 250, 255, 255, 216, 250, 255, 255, 15, 0, 0, 0, 77, 76, 73, 82, 32, 67, 111, 110, 118, 101, 114, 116, 101, 100, 46, 0, 1, 0, 0, 0, 20, 0, 0, 0, 0, 0, 14, 0, 24, 0, 20, 0, 16, 0, 12, 0, 8, 0, 4, 0, 14, 0, 0, 0, 20, 0, 0, 0, 28, 0, 0, 0, 32, 1, 0, 0, 36, 1, 0, 0, 40, 1, 0, 0, 4, 0, 0, 0, 109, 97, 105, 110, 0, 0, 0, 0, 4, 0, 0, 0, 212, 0, 0, 0, 132, 0, 0, 0, 80, 0, 0, 0, 20, 0, 0, 0, 0, 0, 14, 0, 26, 0, 20, 0, 16, 0, 12, 0, 11, 0, 4, 0, 14, 0, 0, 0, 28, 0, 0, 0, 0, 0, 0, 9, 28, 0, 0, 0, 32, 0, 0, 0, 1, 0, 0, 0, 0, 0, 6, 0, 8, 0, 4, 0, 6, 0, 0, 0, 0, 0, 128, 63, 1, 0, 0, 0, 9, 0, 0, 0, 1, 0, 0, 0, 8, 0, 0, 0, 146, 255, 255, 255, 16, 0, 0, 0, 0, 0, 0, 8, 12, 0, 0, 0, 16, 0, 0, 0, 156, 251, 255, 255, 1, 0, 0, 0, 8, 0, 0, 0, 3, 0, 0, 0, 7, 0, 0, 0, 2, 0, 0, 0, 4, 0, 0, 0, 194, 255, 255, 255, 24, 0, 0, 0, 0, 0, 0, 8, 24, 0, 0, 0, 28, 0, 0, 0, 0, 0, 6, 0, 8, 0, 7, 0, 6, 0, 0, 0, 0, 0, 0, 1, 1, 0, 0, 0, 7, 0, 0, 0, 3, 0, 0, 0, 6, 0, 0, 0, 3, 0, 0, 0, 1, 0, 0, 0, 0, 0, 14, 0, 20, 0, 0, 0, 16, 0, 12, 0, 11, 0, 4, 0, 14, 0, 0, 0, 16, 0, 0, 0, 0, 0, 0, 8, 12, 0, 0, 0, 16, 0, 0, 0, 24, 252, 255, 255, 1, 0, 0, 0, 6, 0, 0, 0, 3, 0, 0, 0, 0, 0, 0, 0, 5, 0, 0, 0, 255, 255, 255, 255, 1, 0, 0, 0, 9, 0, 0, 0, 1, 0, 0, 0, 0, 0, 0, 0, 10, 0, 0, 0, 144, 3, 0, 0, 60, 3, 0, 0, 228, 2, 0, 0, 164, 2, 0, 0, 104, 2, 0, 0, 20, 2, 0, 0, 176, 1, 0, 0, 232, 0, 0, 0, 96, 0, 0, 0, 4, 0, 0, 0, 174, 252, 255, 255, 0, 0, 0, 1, 20, 0, 0, 0, 28, 0, 0, 0, 28, 0, 0, 0, 10, 0, 0, 0, 52, 0, 0, 0, 2, 0, 0, 0, 255, 255, 255, 255, 10, 0, 0, 0, 152, 252, 255, 255, 27, 0, 0, 0, 83, 116, 97, 116, 101, 102, 117, 108, 80, 97, 114, 116, 105, 116, 105, 111, 110, 101, 100, 67, 97, 108, 108, 95, 49, 58, 48, 0, 2, 0, 0, 0, 1, 0, 0, 0, 10, 0, 0, 0, 6, 253, 255, 255, 0, 0, 0, 1, 20, 0, 0, 0, 28, 0, 0, 0, 28, 0, 0, 0, 9, 0, 0, 0, 96, 0, 0, 0, 2, 0, 0, 0, 255, 255, 255, 255, 10, 0, 0, 0, 240, 252, 255, 255, 68, 0, 0, 0, 115, 101, 113, 117, 101, 110, 116, 105, 97, 108, 95, 49, 48, 95, 49, 47, 100, 101, 110, 115, 101, 95, 51, 48, 95, 49, 47, 77, 97, 116, 77, 117, 108, 59, 115, 101, 113, 117, 101, 110, 116, 105, 97, 108, 95, 49, 48, 95, 49, 47, 100, 101, 110, 115, 101, 95, 51, 48, 95, 49, 47, 66, 105, 97, 115, 65, 100, 100, 0, 0, 0, 0, 2, 0, 0, 0, 1, 0, 0, 0, 10, 0, 0, 0, 138, 253, 255, 255, 0, 0, 0, 1, 20, 0, 0, 0, 28, 0, 0, 0, 28, 0, 0, 0, 8, 0, 0, 0, 160, 0, 0, 0, 2, 0, 0, 0, 255, 255, 255, 255, 10, 0, 0, 0, 116, 253, 255, 255, 135, 0, 0, 0, 115, 101, 113, 117, 101, 110, 116, 105, 97, 108, 95, 49, 48, 95, 49, 47, 100, 101, 110, 115, 101, 95, 50, 56, 95, 49, 47, 66, 105, 97, 115, 65, 100, 100, 59, 115, 101, 113, 117, 101, 110, 116, 105, 97, 108, 95, 49, 48, 95, 49, 47, 100, 101, 110, 115, 101, 95, 50, 57, 95, 49, 47, 77, 97, 116, 77, 117, 108, 59, 115, 101, 113, 117, 101, 110, 116, 105, 97, 108, 95, 49, 48, 95, 49, 47, 100, 101, 110, 115, 101, 95, 50, 57, 95, 49, 47, 82, 101, 108, 117, 59, 115, 101, 113, 117, 101, 110, 116, 105, 97, 108, 95, 49, 48, 95, 49, 47, 100, 101, 110, 115, 101, 95, 50, 57, 95, 49, 47, 66, 105, 97, 115, 65, 100, 100, 0, 2, 0, 0, 0, 1, 0, 0, 0, 10, 0, 0, 0, 78, 254, 255, 255, 0, 0, 0, 1, 20, 0, 0, 0, 28, 0, 0, 0, 28, 0, 0, 0, 7, 0, 0, 0, 60, 0, 0, 0, 2, 0, 0, 0, 255, 255, 255, 255, 8, 0, 0, 0, 56, 254, 255, 255, 34, 0, 0, 0, 115, 101, 113, 117, 101, 110, 116, 105, 97, 108, 95, 49, 48, 95, 49, 47, 100, 101, 110, 115, 101, 95, 50, 56, 95, 49, 47, 77, 97, 116, 77, 117, 108, 49, 0, 0, 2, 0, 0, 0, 1, 0, 0, 0, 8, 0, 0, 0, 254, 254, 255, 255, 0, 0, 0, 1, 16, 0, 0, 0, 16, 0, 0, 0, 6, 0, 0, 0, 48, 0, 0, 0, 136, 254, 255, 255, 33, 0, 0, 0, 115, 101, 113, 117, 101, 110, 116, 105, 97, 108, 95, 49, 48, 95, 49, 47, 100, 101, 110, 115, 101, 95, 50, 56, 95, 49, 47, 77, 97, 116, 77, 117, 108, 0, 0, 0, 2, 0, 0, 0, 8, 0, 0, 0, 8, 0, 0, 0, 78, 255, 255, 255, 0, 0, 0, 1, 16, 0, 0, 0, 16, 0, 0, 0, 5, 0, 0, 0, 28, 0, 0, 0, 216, 254, 255, 255, 15, 0, 0, 0, 97, 114, 105, 116, 104, 46, 99, 111, 110, 115, 116, 97, 110, 116, 51, 0, 1, 0, 0, 0, 10, 0, 0, 0, 134, 255, 255, 255, 0, 0, 0, 1, 16, 0, 0, 0, 16, 0, 0, 0, 4, 0, 0, 0, 28, 0, 0, 0, 16, 255, 255, 255, 15, 0, 0, 0, 97, 114, 105, 116, 104, 46, 99, 111, 110, 115, 116, 97, 110, 116, 50, 0, 2, 0, 0, 0, 10, 0, 0, 0, 8, 0, 0, 0, 194, 255, 255, 255, 0, 0, 0, 1, 16, 0, 0, 0, 16, 0, 0, 0, 3, 0, 0, 0, 28, 0, 0, 0, 76, 255, 255, 255, 15, 0, 0, 0, 97, 114, 105, 116, 104, 46, 99, 111, 110, 115, 116, 97, 110, 116, 49, 0, 2, 0, 0, 0, 10, 0, 0, 0, 10, 0, 0, 0, 0, 0, 22, 0, 24, 0, 20, 0, 0, 0, 16, 0, 12, 0, 8, 0, 0, 0, 0, 0, 0, 0, 7, 0, 22, 0, 0, 0, 0, 0, 0, 1, 16, 0, 0, 0, 16, 0, 0, 0, 2, 0, 0, 0, 28, 0, 0, 0, 160, 255, 255, 255, 14, 0, 0, 0, 97, 114, 105, 116, 104, 46, 99, 111, 110, 115, 116, 97, 110, 116, 0, 0, 1, 0, 0, 0, 10, 0, 0, 0, 0, 0, 22, 0, 28, 0, 24, 0, 0, 0, 20, 0, 16, 0, 12, 0, 0, 0, 0, 0, 8, 0, 7, 0, 22, 0, 0, 0, 0, 0, 0, 1, 20, 0, 0, 0, 32, 0, 0, 0, 32, 0, 0, 0, 1, 0, 0, 0, 64, 0, 0, 0, 2, 0, 0, 0, 255, 255, 255, 255, 8, 0, 0, 0, 4, 0, 4, 0, 4, 0, 0, 0, 33, 0, 0, 0, 115, 101, 114, 118, 105, 110, 103, 95, 100, 101, 102, 97, 117, 108, 116, 95, 107, 101, 114, 97, 115, 95, 116, 101, 110, 115, 111, 114, 95, 51, 50, 58, 48, 0, 0, 0, 2, 0, 0, 0, 1, 0, 0, 0, 8, 0, 0, 0, 2, 0, 0, 0, 32, 0, 0, 0, 4, 0, 0, 0, 244, 255, 255, 255, 25, 0, 0, 0, 0, 0, 0, 25, 12, 0, 12, 0, 11, 0, 0, 0, 0, 0, 4, 0, 12, 0, 0, 0, 9, 0, 0, 0, 0, 0, 0, 9];